// Modelo TinyML - Features de Movimento
// Acurácia: 100.00%

#ifndef MODEL_H
#define MODEL_H

const unsigned char model_data[] = {
  0x1c, 0x00, 0x00, 0x00, 0x54, 0x46, 0x4c, 0x33, 0x14, 0x00, 0x20, 0x00, 
  0x1c, 0x00, 0x18, 0x00, 0x14, 0x00, 0x10, 0x00, 0x0c, 0x00, 0x00, 0x00, 
  0x08, 0x00, 0x04, 0x00, 0x14, 0x00, 0x00, 0x00, 0x1c, 0x00, 0x00, 0x00, 
  0x98, 0x00, 0x00, 0x00, 0x18, 0x01, 0x00, 0x00, 0x28, 0x07, 0x00, 0x00, 
  0x38, 0x07, 0x00, 0x00, 0x04, 0x13, 0x00, 0x00, 0x03, 0x00, 0x00, 0x00, 
  0x01, 0x00, 0x00, 0x00, 0x10, 0x00, 0x00, 0x00, 0x00, 0x00, 0x0a, 0x00, 
  0x10, 0x00, 0x0c, 0x00, 0x08, 0x00, 0x04, 0x00, 0x0a, 0x00, 0x00, 0x00, 
  0x0c, 0x00, 0x00, 0x00, 0x1c, 0x00, 0x00, 0x00, 0x3c, 0x00, 0x00, 0x00, 
  0x0f, 0x00, 0x00, 0x00, 0x73, 0x65, 0x72, 0x76, 0x69, 0x6e, 0x67, 0x5f, 
  0x64, 0x65, 0x66, 0x61, 0x75, 0x6c, 0x74, 0x00, 0x01, 0x00, 0x00, 0x00, 
  0x04, 0x00, 0x00, 0x00, 0x68, 0xff, 0xff, 0xff, 0x0a, 0x00, 0x00, 0x00, 
  0x04, 0x00, 0x00, 0x00, 0x08, 0x00, 0x00, 0x00, 0x6f, 0x75, 0x74, 0x70, 
  0x75, 0x74, 0x5f, 0x30, 0x00, 0x00, 0x00, 0x00, 0x01, 0x00, 0x00, 0x00, 
  0x04, 0x00, 0x00, 0x00, 0xbe, 0xf8, 0xff, 0xff, 0x04, 0x00, 0x00, 0x00, 
  0x0f, 0x00, 0x00, 0x00, 0x6b, 0x65, 0x72, 0x61, 0x73, 0x5f, 0x74, 0x65, 
  0x6e, 0x73, 0x6f, 0x72, 0x5f, 0x31, 0x31, 0x00, 0x03, 0x00, 0x00, 0x00, 
  0x5c, 0x00, 0x00, 0x00, 0x2c, 0x00, 0x00, 0x00, 0x04, 0x00, 0x00, 0x00, 
  0xb8, 0xff, 0xff, 0xff, 0x0e, 0x00, 0x00, 0x00, 0x04, 0x00, 0x00, 0x00, 
  0x13, 0x00, 0x00, 0x00, 0x43, 0x4f, 0x4e, 0x56, 0x45, 0x52, 0x53, 0x49, 
  0x4f, 0x4e, 0x5f, 0x4d, 0x45, 0x54, 0x41, 0x44, 0x41, 0x54, 0x41, 0x00, 
  0xdc, 0xff, 0xff, 0xff, 0x0d, 0x00, 0x00, 0x00, 0x04, 0x00, 0x00, 0x00, 
  0x13, 0x00, 0x00, 0x00, 0x6d, 0x69, 0x6e, 0x5f, 0x72, 0x75, 0x6e, 0x74, 
  0x69, 0x6d, 0x65, 0x5f, 0x76, 0x65, 0x72, 0x73, 0x69, 0x6f, 0x6e, 0x00, 
  0x08, 0x00, 0x0c, 0x00, 0x08, 0x00, 0x04, 0x00, 0x08, 0x00, 0x00, 0x00, 
  0x0c, 0x00, 0x00, 0x00, 0x04, 0x00, 0x00, 0x00, 0x13, 0x00, 0x00, 0x00, 
  0x6d, 0x69, 0x6e, 0x5f, 0x72, 0x75, 0x6e, 0x74, 0x69, 0x6d, 0x65, 0x5f, 
  0x76, 0x65, 0x72, 0x73, 0x69, 0x6f, 0x6e, 0x00, 0x0f, 0x00, 0x00, 0x00, 
  0x0c, 0x06, 0x00, 0x00, 0x04, 0x06, 0x00, 0x00, 0xe4, 0x05, 0x00, 0x00, 
  0x94, 0x05, 0x00, 0x00, 0x44, 0x05, 0x00, 0x00, 0x34, 0x03, 0x00, 0x00, 
  0xa4, 0x02, 0x00, 0x00, 0xd4, 0x00, 0x00, 0x00, 0xcc, 0x00, 0x00, 0x00, 
  0xc4, 0x00, 0x00, 0x00, 0xbc, 0x00, 0x00, 0x00, 0xb4, 0x00, 0x00, 0x00, 
  0x94, 0x00, 0x00, 0x00, 0x74, 0x00, 0x00, 0x00, 0x04, 0x00, 0x00, 0x00, 
  0x9e, 0xf9, 0xff, 0xff, 0x04, 0x00, 0x00, 0x00, 0x60, 0x00, 0x00, 0x00, 
  0x0c, 0x00, 0x00, 0x00, 0x08, 0x00, 0x0e, 0x00, 0x08, 0x00, 0x04, 0x00, 
  0x08, 0x00, 0x00, 0x00, 0x10, 0x00, 0x00, 0x00, 0x28, 0x00, 0x00, 0x00, 
  0x00, 0x00, 0x06, 0x00, 0x08, 0x00, 0x04, 0x00, 0x06, 0x00, 0x00, 0x00, 
  0x04, 0x00, 0x00, 0x00, 0x01, 0x00, 0x00, 0x00, 0xeb, 0x03, 0x00, 0x00, 
  0x0c, 0x00, 0x18, 0x00, 0x14, 0x00, 0x10, 0x00, 0x0c, 0x00, 0x04, 0x00, 
  0x0c, 0x00, 0x00, 0x00, 0x9c, 0xa9, 0x74, 0x71, 0x03, 0xb7, 0xad, 0x00, 
  0x02, 0x00, 0x00, 0x00, 0x02, 0x00, 0x00, 0x00, 0x04, 0x00, 0x00, 0x00, 
  0x06, 0x00, 0x00, 0x00, 0x32, 0x2e, 0x31, 0x39, 0x2e, 0x30, 0x00, 0x00, 
  0x0a, 0xfa, 0xff, 0xff, 0x04, 0x00, 0x00, 0x00, 0x10, 0x00, 0x00, 0x00, 
  0x00, 0x00, 0x00, 0x00, 0x00, 0x00, 0x00, 0x00, 0x00, 0x00, 0x00, 0x00, 
  0x00, 0x00, 0x00, 0x00, 0x26, 0xfa, 0xff, 0xff, 0x04, 0x00, 0x00, 0x00, 
  0x10, 0x00, 0x00, 0x00, 0x31, 0x2e, 0x31, 0x34, 0x2e, 0x30, 0x00, 0x00, 
  0x00, 0x00, 0x00, 0x00, 0x00, 0x00, 0x00, 0x00, 0x10, 0xfa, 0xff, 0xff, 
  0x14, 0xfa, 0xff, 0xff, 0x18, 0xfa, 0xff, 0xff, 0x1c, 0xfa, 0xff, 0xff, 
  0x52, 0xfa, 0xff, 0xff, 0x04, 0x00, 0x00, 0x00, 0xc0, 0x01, 0x00, 0x00, 
  0x51, 0xe3, 0x7f, 0x4e, 0x3f, 0x4d, 0xc1, 0x00, 0x2e, 0x32, 0xf0, 0xc1, 
  0x03, 0xb0, 0x14, 0x66, 0x7a, 0x21, 0x2b, 0xc7, 0xbe, 0xbf, 0xaf, 0x0b, 
  0x7f, 0x4c, 0xdf, 0xcf, 0x26, 0x2c, 0x23, 0x04, 0x46, 0x7f, 0xf1, 0x5a, 
  0xce, 0xc9, 0x47, 0x21, 0xa5, 0x50, 0x24, 0xfd, 0xfe, 0x5f, 0xd9, 0xfd, 
  0xdf, 0x60, 0xe5, 0xa3, 0x81, 0xdd, 0x0a, 0xb6, 0xdf, 0xca, 0x2a, 0xbe, 
  0x10, 0x81, 0xf4, 0xb2, 0xb5, 0x23, 0xf6, 0xee, 0x0a, 0x07, 0x57, 0x34, 
  0x7f, 0xb4, 0xf7, 0xb1, 0x0e, 0xf7, 0xd0, 0x28, 0x4d, 0x17, 0x28, 0xb9, 
  0xdc, 0x81, 0xae, 0xa9, 0x92, 0xaa, 0x0c, 0x89, 0x2c, 0xaa, 0xee, 0xf8, 
  0x1c, 0x4a, 0x0b, 0xb3, 0x0b, 0xf2, 0x03, 0x81, 0x69, 0xa2, 0x34, 0x9d, 
  0xa9, 0xea, 0x31, 0x5f, 0x3c, 0xb8, 0x7f, 0x00, 0xf6, 0xdb, 0xc0, 0xfb, 
  0x38, 0x13, 0x72, 0x23, 0xd0, 0xe8, 0x1b, 0xe4, 0x7f, 0x55, 0x67, 0x9e, 
  0xdb, 0xe0, 0x7b, 0xb8, 0x51, 0xc5, 0xdd, 0xfd, 0xf0, 0xd0, 0x05, 0xd7, 
  0x2f, 0x26, 0xe1, 0x34, 0xea, 0x8a, 0x81, 0xf5, 0x99, 0x46, 0x0b, 0x89, 
  0x7a, 0x9e, 0xdd, 0x01, 0x29, 0x5a, 0x29, 0xb7, 0x7f, 0xa1, 0xda, 0xb7, 
  0xbe, 0x6f, 0x92, 0x76, 0xfd, 0x16, 0x5a, 0x25, 0x04, 0x5f, 0x81, 0xc9, 
  0x22, 0x6c, 0xe8, 0x51, 0x7f, 0xea, 0xef, 0xc9, 0xdb, 0xd6, 0x39, 0xc9, 
  0x79, 0x13, 0xe8, 0xd4, 0x4c, 0x40, 0xd2, 0x03, 0xe6, 0x68, 0x1d, 0x18, 
  0xcd, 0x47, 0x81, 0xec, 0xdc, 0x34, 0xf0, 0x26, 0x38, 0x29, 0x7f, 0xa2, 
  0x05, 0x5b, 0x82, 0x99, 0xf3, 0xcc, 0xee, 0x85, 0x0d, 0x2f, 0x88, 0x12, 
  0x27, 0x7a, 0x15, 0x38, 0xba, 0xd0, 0xa0, 0xe0, 0xe3, 0x81, 0x81, 0xb4, 
  0x00, 0xd5, 0xe5, 0x11, 0x96, 0xad, 0xcc, 0x1e, 0x38, 0x18, 0x0b, 0x1b, 
  0x18, 0x3b, 0x81, 0x36, 0xa2, 0x55, 0x3e, 0x54, 0x4d, 0xb1, 0x49, 0xc5, 
  0x68, 0x40, 0x55, 0x02, 0x2a, 0x78, 0xa2, 0x74, 0xeb, 0xbe, 0x05, 0x78, 
  0x81, 0xdb, 0xc0, 0x77, 0x9c, 0x81, 0xaf, 0xbe, 0xe4, 0xf4, 0x1b, 0x0f, 
  0x37, 0x90, 0x46, 0x44, 0xe6, 0x4e, 0x34, 0xdf, 0xaf, 0x12, 0xf4, 0xe6, 
  0x05, 0x7f, 0xd2, 0x02, 0x0d, 0x8a, 0xfe, 0xeb, 0x55, 0x08, 0x86, 0x3c, 
  0xc7, 0x13, 0x2b, 0x62, 0x07, 0x3f, 0x81, 0x31, 0xfa, 0x05, 0x76, 0x13, 
  0x81, 0x1f, 0x7a, 0x13, 0x44, 0xd9, 0x0e, 0xf5, 0xb3, 0xb9, 0x01, 0xd6, 
  0x06, 0xb5, 0xb1, 0x59, 0x81, 0x38, 0x33, 0x4e, 0x58, 0x62, 0xbd, 0x51, 
  0x62, 0x0c, 0x13, 0x39, 0x7d, 0x13, 0x70, 0xcb, 0x81, 0x0c, 0x5c, 0x43, 
  0x00, 0xf6, 0x01, 0xe5, 0xfc, 0x92, 0xec, 0xad, 0xdd, 0x82, 0xf9, 0xdf, 
  0xa1, 0x3d, 0x81, 0xc1, 0x19, 0x43, 0x47, 0x1d, 0xa2, 0x5a, 0xdf, 0xda, 
  0x01, 0x6f, 0x3c, 0x28, 0xb0, 0x23, 0xea, 0x7f, 0x16, 0xca, 0xc4, 0xfc, 
  0xb5, 0x22, 0x06, 0x7f, 0x03, 0x41, 0xb5, 0xf9, 0xfb, 0xaf, 0xe9, 0xdb, 
  0x29, 0x81, 0xcf, 0xe1, 0xbf, 0x8f, 0x2d, 0x0b, 0x33, 0x14, 0x2f, 0x18, 
  0xac, 0x5c, 0x1a, 0xa1, 0x15, 0x34, 0xfd, 0x7f, 0xa9, 0x6e, 0x1a, 0x20, 
  0x99, 0xef, 0x36, 0xef, 0x0d, 0x81, 0x31, 0x93, 0x25, 0x8c, 0x88, 0x3b, 
  0x67, 0x06, 0x21, 0x18, 0x1e, 0xfc, 0xff, 0xff, 0x04, 0x00, 0x00, 0x00, 
  0x80, 0x00, 0x00, 0x00, 0x90, 0x02, 0x00, 0x00, 0x04, 0xfb, 0xff, 0xff, 
  0x29, 0x0b, 0x00, 0x00, 0xf7, 0x03, 0x00, 0x00, 0x07, 0x00, 0x00, 0x00, 
  0x52, 0xfc, 0xff, 0xff, 0x56, 0x00, 0x00, 0x00, 0x2c, 0xf7, 0xff, 0xff, 
  0x4a, 0x00, 0x00, 0x00, 0xc6, 0xf7, 0xff, 0xff, 0x82, 0x05, 0x00, 0x00, 
  0xad, 0x00, 0x00, 0x00, 0x45, 0x05, 0x00, 0x00, 0x0a, 0xfd, 0xff, 0xff, 
  0x1f, 0x07, 0x00, 0x00, 0xe9, 0x03, 0x00, 0x00, 0x0f, 0x06, 0x00, 0x00, 
  0x67, 0x03, 0x00, 0x00, 0x5a, 0x01, 0x00, 0x00, 0x8c, 0x00, 0x00, 0x00, 
  0xdb, 0xf8, 0xff, 0xff, 0xc1, 0x01, 0x00, 0x00, 0x7f, 0x0b, 0x00, 0x00, 
  0x15, 0x08, 0x00, 0x00, 0xb3, 0x05, 0x00, 0x00, 0x31, 0xfd, 0xff, 0xff, 
  0xe8, 0x00, 0x00, 0x00, 0xc9, 0x06, 0x00, 0x00, 0x64, 0x06, 0x00, 0x00, 
  0x2d, 0xf6, 0xff, 0xff, 0x73, 0x0c, 0x00, 0x00, 0xb6, 0xf7, 0xff, 0xff, 
  0xaa, 0xfc, 0xff, 0xff, 0x04, 0x00, 0x00, 0x00, 0x00, 0x02, 0x00, 0x00, 
  0x73, 0xee, 0x7f, 0xf1, 0xa4, 0xa5, 0x95, 0x93, 0xf9, 0xbd, 0x07, 0xf0, 
  0x4e, 0xcc, 0x62, 0x2f, 0xee, 0xff, 0xe0, 0x5c, 0xc1, 0x31, 0xfc, 0x75, 
  0x31, 0x45, 0x9e, 0x2d, 0xf2, 0x01, 0xe9, 0x02, 0xf2, 0x9c, 0xab, 0x75, 
  0x4b, 0xb8, 0xed, 0xd9, 0xbc, 0xf0, 0x35, 0x21, 0x2e, 0xc9, 0x22, 0x42, 
  0x3b, 0xe0, 0xeb, 0x6d, 0x13, 0x13, 0x16, 0x44, 0x04, 0xf7, 0x5f, 0x7f, 
  0x76, 0x38, 0x42, 0xa3, 0x08, 0xf5, 0x8a, 0x96, 0x2b, 0x38, 0x02, 0x3d, 
  0xe2, 0x35, 0x32, 0x9a, 0xa2, 0xb8, 0xf7, 0xc5, 0xb9, 0x43, 0xd6, 0xf3, 
  0x4f, 0xb2, 0xd9, 0x0a, 0xbe, 0xb8, 0x42, 0x81, 0x8e, 0x6a, 0xca, 0xfb, 
  0xbf, 0x1f, 0x8d, 0x5b, 0x6b, 0xd5, 0x7b, 0x7f, 0xe6, 0xf7, 0x69, 0x08, 
  0xc0, 0x90, 0x3d, 0x10, 0x3e, 0x58, 0x09, 0xb5, 0x5a, 0x4c, 0x10, 0x2a, 
  0x3e, 0xf7, 0x4c, 0x48, 0xe2, 0xda, 0x90, 0xdd, 0x2c, 0x2f, 0xdb, 0xdb, 
  0xa5, 0xa7, 0xac, 0x0e, 0xf7, 0xd6, 0x2f, 0xc0, 0x46, 0xbc, 0x2b, 0x06, 
  0x2c, 0x81, 0x0c, 0x36, 0xc5, 0xdc, 0x5a, 0x46, 0x41, 0xdc, 0xc6, 0x0e, 
  0x4b, 0x15, 0xeb, 0xd6, 0x11, 0x27, 0xf0, 0x87, 0x0b, 0xc4, 0x50, 0x46, 
  0xcc, 0x2d, 0xe8, 0x9a, 0xa8, 0xb1, 0x41, 0xfa, 0xc8, 0xea, 0xec, 0x3f, 
  0x1c, 0x00, 0xbc, 0x2e, 0x2f, 0xf3, 0xed, 0xd3, 0xb7, 0x4c, 0xf1, 0x7f, 
  0xd3, 0x98, 0xbb, 0x27, 0x55, 0xc9, 0x3f, 0x08, 0xeb, 0xa6, 0x44, 0x2b, 
  0x1b, 0xe5, 0xd6, 0x2a, 0xf9, 0xe7, 0xc3, 0xed, 0xfc, 0x4c, 0x76, 0x5c, 
  0x35, 0x13, 0x36, 0x15, 0x7f, 0x18, 0xe5, 0xf8, 0x36, 0x46, 0x10, 0xd0, 
  0x5b, 0xf8, 0xdb, 0x3b, 0x66, 0xfc, 0x08, 0x2d, 0xc7, 0x61, 0xad, 0x21, 
  0x95, 0x01, 0x2d, 0xde, 0x06, 0xf9, 0xf5, 0xe3, 0xdf, 0x15, 0x4a, 0xc9, 
  0x81, 0x65, 0x1e, 0x4d, 0xfe, 0x33, 0x5b, 0x58, 0xe9, 0xe8, 0x07, 0xfa, 
  0x25, 0x0a, 0xeb, 0x3e, 0x10, 0xe9, 0x68, 0x4e, 0x23, 0x13, 0x2d, 0x21, 
  0xe7, 0x3f, 0x6b, 0x5e, 0x1e, 0xf5, 0x01, 0x3f, 0x7f, 0xc7, 0x58, 0xc8, 
  0xbe, 0x06, 0x2c, 0xf4, 0x03, 0x14, 0xe9, 0x60, 0xf5, 0x0e, 0x0b, 0xb1, 
  0xeb, 0x2a, 0xe3, 0xeb, 0xd1, 0x6a, 0xcc, 0xf2, 0x03, 0xbb, 0xd3, 0xe2, 
  0x09, 0xfd, 0x4c, 0xdd, 0x81, 0x34, 0xb1, 0x31, 0x56, 0x15, 0x39, 0xf9, 
  0x02, 0x58, 0xc5, 0x03, 0x4b, 0x7f, 0xe9, 0x01, 0xee, 0x08, 0xec, 0x12, 
  0xe6, 0xc7, 0x48, 0x03, 0xe9, 0xef, 0x0e, 0x2e, 0x07, 0x5e, 0xd4, 0x2f, 
  0xfa, 0xb3, 0x66, 0x2a, 0xd1, 0xde, 0x79, 0x01, 0x90, 0x50, 0xbc, 0xd1, 
  0x47, 0xef, 0xd4, 0xc3, 0xe9, 0xda, 0x0c, 0xc4, 0x60, 0xef, 0x07, 0x7f, 
  0x99, 0x1f, 0xf7, 0x22, 0x7e, 0x51, 0xbd, 0x61, 0x02, 0xde, 0x78, 0x4c, 
  0xd5, 0xb8, 0x28, 0x20, 0x39, 0x3f, 0x40, 0xcf, 0x23, 0xe6, 0xc8, 0x82, 
  0x50, 0x0d, 0x8e, 0xd2, 0x26, 0xb8, 0x54, 0x18, 0x56, 0xb4, 0x0b, 0xa1, 
  0x9e, 0xbe, 0xc8, 0x33, 0x2d, 0xe2, 0xf9, 0x7f, 0x11, 0xbc, 0x1f, 0xfa, 
  0xf3, 0xa5, 0xb9, 0x0b, 0x02, 0xe0, 0xf3, 0xac, 0x61, 0x16, 0x64, 0x32, 
  0x2c, 0x81, 0x47, 0x05, 0x0c, 0xe8, 0x72, 0x52, 0xcd, 0xe2, 0xd0, 0x52, 
  0x04, 0x1e, 0xf5, 0x03, 0x3e, 0x19, 0xe2, 0xe5, 0x34, 0x1b, 0x40, 0xde, 
  0x47, 0x5f, 0x09, 0x5c, 0x28, 0x6d, 0xb9, 0xf3, 0xb2, 0x75, 0xb0, 0xd8, 
  0x40, 0x9b, 0xfd, 0x11, 0xcf, 0x4b, 0xfb, 0xba, 0x81, 0x6d, 0xc0, 0x0c, 
  0x27, 0x52, 0xe9, 0xf3, 0x05, 0x2e, 0xfe, 0xd2, 0x3b, 0x0e, 0x2b, 0x7f, 
  0xa6, 0x4e, 0xb2, 0x55, 0x4d, 0x2a, 0xc4, 0x09, 0x1e, 0xee, 0x1c, 0x11, 
  0xb8, 0x28, 0xe6, 0x28, 0x4d, 0x02, 0x56, 0xe6, 0xb6, 0xfe, 0xff, 0xff, 
  0x04, 0x00, 0x00, 0x00, 0x40, 0x00, 0x00, 0x00, 0xae, 0x06, 0x00, 0x00, 
  0x83, 0x0e, 0x00, 0x00, 0x11, 0xf9, 0xff, 0xff, 0xfc, 0x07, 0x00, 0x00, 
  0x01, 0x07, 0x00, 0x00, 0xd2, 0xfc, 0xff, 0xff, 0x34, 0x0c, 0x00, 0x00, 
  0x82, 0xf9, 0xff, 0xff, 0x64, 0x0b, 0x00, 0x00, 0x01, 0xfd, 0xff, 0xff, 
  0x01, 0x04, 0x00, 0x00, 0x32, 0x09, 0x00, 0x00, 0x06, 0xf7, 0xff, 0xff, 
  0xdd, 0xff, 0xff, 0xff, 0x71, 0xf9, 0xff, 0xff, 0x27, 0x00, 0x00, 0x00, 
  0x02, 0xff, 0xff, 0xff, 0x04, 0x00, 0x00, 0x00, 0x40, 0x00, 0x00, 0x00, 
  0xa1, 0xff, 0x01, 0x10, 0xb8, 0xc0, 0x5a, 0xda, 0x26, 0xf5, 0x81, 0x9e, 
  0xd3, 0xd7, 0xe8, 0x14, 0x56, 0xba, 0x0f, 0x98, 0x5e, 0x00, 0x0d, 0x96, 
  0x1a, 0x8e, 0x55, 0x37, 0x2d, 0x5d, 0x81, 0xdb, 0xb1, 0xce, 0x64, 0x0c, 
  0x99, 0x31, 0x4d, 0x2e, 0x86, 0x50, 0x0f, 0x81, 0x2e, 0xdd, 0x4d, 0xd8, 
  0x1e, 0x81, 0xd5, 0x92, 0xb9, 0xa4, 0xa6, 0x48, 0x0f, 0x0d, 0x61, 0x00, 
  0xf1, 0xe2, 0x69, 0x4b, 0x4e, 0xff, 0xff, 0xff, 0x04, 0x00, 0x00, 0x00, 
  0x10, 0x00, 0x00, 0x00, 0xaa, 0x03, 0x00, 0x00, 0xfe, 0xfe, 0xff, 0xff, 
  0x6a, 0xfc, 0xff, 0xff, 0x60, 0xfe, 0xff, 0xff, 0x38, 0xff, 0xff, 0xff, 
  0x3c, 0xff, 0xff, 0xff, 0x0f, 0x00, 0x00, 0x00, 0x4d, 0x4c, 0x49, 0x52, 
  0x20, 0x43, 0x6f, 0x6e, 0x76, 0x65, 0x72, 0x74, 0x65, 0x64, 0x2e, 0x00, 
  0x01, 0x00, 0x00, 0x00, 0x14, 0x00, 0x00, 0x00, 0x00, 0x00, 0x0e, 0x00, 
  0x18, 0x00, 0x14, 0x00, 0x10, 0x00, 0x0c, 0x00, 0x08, 0x00, 0x04, 0x00, 
  0x0e, 0x00, 0x00, 0x00, 0x14, 0x00, 0x00, 0x00, 0x1c, 0x00, 0x00, 0x00, 
  0x38, 0x01, 0x00, 0x00, 0x3c, 0x01, 0x00, 0x00, 0x40, 0x01, 0x00, 0x00, 
  0x04, 0x00, 0x00, 0x00, 0x6d, 0x61, 0x69, 0x6e, 0x00, 0x00, 0x00, 0x00, 
  0x04, 0x00, 0x00, 0x00, 0xe0, 0x00, 0x00, 0x00, 0x98, 0x00, 0x00, 0x00, 
  0x50, 0x00, 0x00, 0x00, 0x14, 0x00, 0x00, 0x00, 0x00, 0x00, 0x0e, 0x00, 
  0x1a, 0x00, 0x14, 0x00, 0x10, 0x00, 0x0c, 0x00, 0x0b, 0x00, 0x04, 0x00, 
  0x0e, 0x00, 0x00, 0x00, 0x1c, 0x00, 0x00, 0x00, 0x00, 0x00, 0x00, 0x09, 
  0x1c, 0x00, 0x00, 0x00, 0x20, 0x00, 0x00, 0x00, 0x01, 0x00, 0x00, 0x00, 
  0x00, 0x00, 0x06, 0x00, 0x08, 0x00, 0x04, 0x00, 0x06, 0x00, 0x00, 0x00, 
  0x00, 0x00, 0x80, 0x3f, 0x01, 0x00, 0x00, 0x00, 0x0a, 0x00, 0x00, 0x00, 
  0x01, 0x00, 0x00, 0x00, 0x09, 0x00, 0x00, 0x00, 0xca, 0xff, 0xff, 0xff, 
  0x14, 0x00, 0x00, 0x00, 0x00, 0x00, 0x00, 0x08, 0x10, 0x00, 0x00, 0x00, 
  0x14, 0x00, 0x00, 0x00, 0x04, 0x00, 0x04, 0x00, 0x04, 0x00, 0x00, 0x00, 
  0x01, 0x00, 0x00, 0x00, 0x09, 0x00, 0x00, 0x00, 0x03, 0x00, 0x00, 0x00, 
  0x08, 0x00, 0x00, 0x00, 0x02, 0x00, 0x00, 0x00, 0x01, 0x00, 0x00, 0x00, 
  0x00, 0x00, 0x0e, 0x00, 0x14, 0x00, 0x00, 0x00, 0x10, 0x00, 0x0c, 0x00, 
  0x0b, 0x00, 0x04, 0x00, 0x0e, 0x00, 0x00, 0x00, 0x10, 0x00, 0x00, 0x00, 
  0x00, 0x00, 0x00, 0x08, 0x10, 0x00, 0x00, 0x00, 0x14, 0x00, 0x00, 0x00, 
  0xba, 0xff, 0xff, 0xff, 0x00, 0x00, 0x00, 0x01, 0x01, 0x00, 0x00, 0x00, 
  0x08, 0x00, 0x00, 0x00, 0x03, 0x00, 0x00, 0x00, 0x07, 0x00, 0x00, 0x00, 
  0x04, 0x00, 0x00, 0x00, 0x03, 0x00, 0x00, 0x00, 0x00, 0x00, 0x0e, 0x00, 
  0x16, 0x00, 0x00, 0x00, 0x10, 0x00, 0x0c, 0x00, 0x0b, 0x00, 0x04, 0x00, 
  0x0e, 0x00, 0x00, 0x00, 0x18, 0x00, 0x00, 0x00, 0x00, 0x00, 0x00, 0x08, 
  0x18, 0x00, 0x00, 0x00, 0x1c, 0x00, 0x00, 0x00, 0x00, 0x00, 0x06, 0x00, 
  0x08, 0x00, 0x07, 0x00, 0x06, 0x00, 0x00, 0x00, 0x00, 0x00, 0x00, 0x01, 
  0x01, 0x00, 0x00, 0x00, 0x07, 0x00, 0x00, 0x00, 0x03, 0x00, 0x00, 0x00, 
  0x00, 0x00, 0x00, 0x00, 0x06, 0x00, 0x00, 0x00, 0x05, 0x00, 0x00, 0x00, 
  0x01, 0x00, 0x00, 0x00, 0x0a, 0x00, 0x00, 0x00, 0x01, 0x00, 0x00, 0x00, 
  0x00, 0x00, 0x00, 0x00, 0x0b, 0x00, 0x00, 0x00, 0xd0, 0x09, 0x00, 0x00, 
  0x30, 0x09, 0x00, 0x00, 0x8c, 0x08, 0x00, 0x00, 0x78, 0x07, 0x00, 0x00, 
  0x5c, 0x06, 0x00, 0x00, 0x88, 0x04, 0x00, 0x00, 0xac, 0x02, 0x00, 0x00, 
  0xe8, 0x01, 0x00, 0x00, 0x24, 0x01, 0x00, 0x00, 0x80, 0x00, 0x00, 0x00, 
  0x04, 0x00, 0x00, 0x00, 0x72, 0xf6, 0xff, 0xff, 0x00, 0x00, 0x00, 0x01, 
  0x18, 0x00, 0x00, 0x00, 0x20, 0x00, 0x00, 0x00, 0x3c, 0x00, 0x00, 0x00, 
  0x0b, 0x00, 0x00, 0x00, 0x00, 0x00, 0x00, 0x09, 0x50, 0x00, 0x00, 0x00, 
  0x02, 0x00, 0x00, 0x00, 0xff, 0xff, 0xff, 0xff, 0x04, 0x00, 0x00, 0x00, 
  0x5c, 0xf6, 0xff, 0xff, 0x08, 0x00, 0x00, 0x00, 0x10, 0x00, 0x00, 0x00, 
  0x01, 0x00, 0x00, 0x00, 0x80, 0xff, 0xff, 0xff, 0xff, 0xff, 0xff, 0xff, 
  0x01, 0x00, 0x00, 0x00, 0x00, 0x00, 0x80, 0x3b, 0x1b, 0x00, 0x00, 0x00, 
  0x53, 0x74, 0x61, 0x74, 0x65, 0x66, 0x75, 0x6c, 0x50, 0x61, 0x72, 0x74, 
  0x69, 0x74, 0x69, 0x6f, 0x6e, 0x65, 0x64, 0x43, 0x61, 0x6c, 0x6c, 0x5f, 
  0x31, 0x3a, 0x30, 0x00, 0x02, 0x00, 0x00, 0x00, 0x01, 0x00, 0x00, 0x00, 
  0x04, 0x00, 0x00, 0x00, 0xea, 0xf6, 0xff, 0xff, 0x00, 0x00, 0x00, 0x01, 
  0x18, 0x00, 0x00, 0x00, 0x20, 0x00, 0x00, 0x00, 0x3c, 0x00, 0x00, 0x00, 
  0x0a, 0x00, 0x00, 0x00, 0x00, 0x00, 0x00, 0x09, 0x78, 0x00, 0x00, 0x00, 
  0x02, 0x00, 0x00, 0x00, 0xff, 0xff, 0xff, 0xff, 0x04, 0x00, 0x00, 0x00, 
  0xd4, 0xf6, 0xff, 0xff, 0x08, 0x00, 0x00, 0x00, 0x10, 0x00, 0x00, 0x00, 
  0x01, 0x00, 0x00, 0x00, 0x1d, 0x00, 0x00, 0x00, 0x00, 0x00, 0x00, 0x00, 
  0x01, 0x00, 0x00, 0x00, 0x3c, 0x1b, 0x09, 0x3e, 0x40, 0x00, 0x00, 0x00, 
  0x73, 0x65, 0x71, 0x75, 0x65, 0x6e, 0x74, 0x69, 0x61, 0x6c, 0x5f, 0x32, 
  0x5f, 0x31, 0x2f, 0x64, 0x65, 0x6e, 0x73, 0x65, 0x5f, 0x35, 0x5f, 0x31, 
  0x2f, 0x4d, 0x61, 0x74, 0x4d, 0x75, 0x6c, 0x3b, 0x73, 0x65, 0x71, 0x75, 
  0x65, 0x6e, 0x74, 0x69, 0x61, 0x6c, 0x5f, 0x32, 0x5f, 0x31, 0x2f, 0x64, 
  0x65, 0x6e, 0x73, 0x65, 0x5f, 0x35, 0x5f, 0x31, 0x2f, 0x42, 0x69, 0x61, 
  0x73, 0x41, 0x64, 0x64, 0x00, 0x00, 0x00, 0x00, 0x02, 0x00, 0x00, 0x00, 
  0x01, 0x00, 0x00, 0x00, 0x04, 0x00, 0x00, 0x00, 0x8a, 0xf7, 0xff, 0xff, 
  0x00, 0x00, 0x00, 0x01, 0x18, 0x00, 0x00, 0x00, 0x20, 0x00, 0x00, 0x00, 
  0x40, 0x00, 0x00, 0x00, 0x09, 0x00, 0x00, 0x00, 0x00, 0x00, 0x00, 0x09, 
  0x98, 0x00, 0x00, 0x00, 0x02, 0x00, 0x00, 0x00, 0xff, 0xff, 0xff, 0xff, 
  0x10, 0x00, 0x00, 0x00, 0x74, 0xf7, 0xff, 0xff, 0x08, 0x00, 0x00, 0x00, 
  0x14, 0x00, 0x00, 0x00, 0x01, 0x00, 0x00, 0x00, 0x80, 0xff, 0xff, 0xff, 
  0xff, 0xff, 0xff, 0xff, 0x00, 0x00, 0x00, 0x00, 0x01, 0x00, 0x00, 0x00, 
  0x6b, 0x81, 0x2e, 0x3d, 0x5e, 0x00, 0x00, 0x00, 0x73, 0x65, 0x71, 0x75, 
  0x65, 0x6e, 0x74, 0x69, 0x61, 0x6c, 0x5f, 0x32, 0x5f, 0x31, 0x2f, 0x64, 
  0x65, 0x6e, 0x73, 0x65, 0x5f, 0x34, 0x5f, 0x31, 0x2f, 0x4d, 0x61, 0x74, 
  0x4d, 0x75, 0x6c, 0x3b, 0x73, 0x65, 0x71, 0x75, 0x65, 0x6e, 0x74, 0x69, 
  0x61, 0x6c, 0x5f, 0x32, 0x5f, 0x31, 0x2f, 0x64, 0x65, 0x6e, 0x73, 0x65, 
  0x5f, 0x34, 0x5f, 0x31, 0x2f, 0x52, 0x65, 0x6c, 0x75, 0x3b, 0x73, 0x65, 
  0x71, 0x75, 0x65, 0x6e, 0x74, 0x69, 0x61, 0x6c, 0x5f, 0x32, 0x5f, 0x31, 
  0x2f, 0x64, 0x65, 0x6e, 0x73, 0x65, 0x5f, 0x34, 0x5f, 0x31, 0x2f, 0x42, 
  0x69, 0x61, 0x73, 0x41, 0x64, 0x64, 0x00, 0x00, 0x02, 0x00, 0x00, 0x00, 
  0x01, 0x00, 0x00, 0x00, 0x10, 0x00, 0x00, 0x00, 0x4a, 0xf8, 0xff, 0xff, 
  0x00, 0x00, 0x00, 0x01, 0x18, 0x00, 0x00, 0x00, 0x20, 0x00, 0x00, 0x00, 
  0x40, 0x00, 0x00, 0x00, 0x08, 0x00, 0x00, 0x00, 0x00, 0x00, 0x00, 0x09, 
  0x98, 0x00, 0x00, 0x00, 0x02, 0x00, 0x00, 0x00, 0xff, 0xff, 0xff, 0xff, 
  0x20, 0x00, 0x00, 0x00, 0x34, 0xf8, 0xff, 0xff, 0x08, 0x00, 0x00, 0x00, 
  0x14, 0x00, 0x00, 0x00, 0x01, 0x00, 0x00, 0x00, 0x80, 0xff, 0xff, 0xff, 
  0xff, 0xff, 0xff, 0xff, 0x00, 0x00, 0x00, 0x00, 0x01, 0x00, 0x00, 0x00, 
  0x67, 0x6e, 0xa1, 0x3c, 0x5e, 0x00, 0x00, 0x00, 0x73, 0x65, 0x71, 0x75, 
  0x65, 0x6e, 0x74, 0x69, 0x61, 0x6c, 0x5f, 0x32, 0x5f, 0x31, 0x2f, 0x64, 
  0x65, 0x6e, 0x73, 0x65, 0x5f, 0x33, 0x5f, 0x31, 0x2f, 0x4d, 0x61, 0x74, 
  0x4d, 0x75, 0x6c, 0x3b, 0x73, 0x65, 0x71, 0x75, 0x65, 0x6e, 0x74, 0x69, 
  0x61, 0x6c, 0x5f, 0x32, 0x5f, 0x31, 0x2f, 0x64, 0x65, 0x6e, 0x73, 0x65, 
  0x5f, 0x33, 0x5f, 0x31, 0x2f, 0x52, 0x65, 0x6c, 0x75, 0x3b, 0x73, 0x65, 
  0x71, 0x75, 0x65, 0x6e, 0x74, 0x69, 0x61, 0x6c, 0x5f, 0x32, 0x5f, 0x31, 
  0x2f, 0x64, 0x65, 0x6e, 0x73, 0x65, 0x5f, 0x33, 0x5f, 0x31, 0x2f, 0x42, 
  0x69, 0x61, 0x73, 0x41, 0x64, 0x64, 0x00, 0x00, 0x02, 0x00, 0x00, 0x00, 
  0x01, 0x00, 0x00, 0x00, 0x20, 0x00, 0x00, 0x00, 0xa6, 0xf9, 0xff, 0xff, 
  0x00, 0x00, 0x00, 0x01, 0x14, 0x00, 0x00, 0x00, 0xa8, 0x01, 0x00, 0x00, 
  0x07, 0x00, 0x00, 0x00, 0x00, 0x00, 0x00, 0x09, 0xb4, 0x01, 0x00, 0x00, 
  0xe4, 0xf8, 0xff, 0xff, 0x08, 0x00, 0x00, 0x00, 0x0c, 0x01, 0x00, 0x00, 
  0x20, 0x00, 0x00, 0x00, 0x00, 0x00, 0x00, 0x00, 0x00, 0x00, 0x00, 0x00, 
  0x00, 0x00, 0x00, 0x00, 0x00, 0x00, 0x00, 0x00, 0x00, 0x00, 0x00, 0x00, 
  0x00, 0x00, 0x00, 0x00, 0x00, 0x00, 0x00, 0x00, 0x00, 0x00, 0x00, 0x00, 
  0x00, 0x00, 0x00, 0x00, 0x00, 0x00, 0x00, 0x00, 0x00, 0x00, 0x00, 0x00, 
  0x00, 0x00, 0x00, 0x00, 0x00, 0x00, 0x00, 0x00, 0x00, 0x00, 0x00, 0x00, 
  0x00, 0x00, 0x00, 0x00, 0x00, 0x00, 0x00, 0x00, 0x00, 0x00, 0x00, 0x00, 
  0x00, 0x00, 0x00, 0x00, 0x00, 0x00, 0x00, 0x00, 0x00, 0x00, 0x00, 0x00, 
  0x00, 0x00, 0x00, 0x00, 0x00, 0x00, 0x00, 0x00, 0x00, 0x00, 0x00, 0x00, 
  0x00, 0x00, 0x00, 0x00, 0x00, 0x00, 0x00, 0x00, 0x00, 0x00, 0x00, 0x00, 
  0x00, 0x00, 0x00, 0x00, 0x00, 0x00, 0x00, 0x00, 0x00, 0x00, 0x00, 0x00, 
  0x00, 0x00, 0x00, 0x00, 0x00, 0x00, 0x00, 0x00, 0x00, 0x00, 0x00, 0x00, 
  0x00, 0x00, 0x00, 0x00, 0x00, 0x00, 0x00, 0x00, 0x00, 0x00, 0x00, 0x00, 
  0x00, 0x00, 0x00, 0x00, 0x00, 0x00, 0x00, 0x00, 0x00, 0x00, 0x00, 0x00, 
  0x00, 0x00, 0x00, 0x00, 0x00, 0x00, 0x00, 0x00, 0x00, 0x00, 0x00, 0x00, 
  0x00, 0x00, 0x00, 0x00, 0x00, 0x00, 0x00, 0x00, 0x00, 0x00, 0x00, 0x00, 
  0x00, 0x00, 0x00, 0x00, 0x00, 0x00, 0x00, 0x00, 0x00, 0x00, 0x00, 0x00, 
  0x00, 0x00, 0x00, 0x00, 0x00, 0x00, 0x00, 0x00, 0x00, 0x00, 0x00, 0x00, 
  0x00, 0x00, 0x00, 0x00, 0x00, 0x00, 0x00, 0x00, 0x00, 0x00, 0x00, 0x00, 
  0x00, 0x00, 0x00, 0x00, 0x00, 0x00, 0x00, 0x00, 0x00, 0x00, 0x00, 0x00, 
  0x00, 0x00, 0x00, 0x00, 0x00, 0x00, 0x00, 0x00, 0x00, 0x00, 0x00, 0x00, 
  0x00, 0x00, 0x00, 0x00, 0x00, 0x00, 0x00, 0x00, 0x00, 0x00, 0x00, 0x00, 
  0x00, 0x00, 0x00, 0x00, 0x00, 0x00, 0x00, 0x00, 0x00, 0x00, 0x00, 0x00, 
  0x20, 0x00, 0x00, 0x00, 0x16, 0xf3, 0x8e, 0x3b, 0xb0, 0xde, 0x21, 0x3b, 
  0x04, 0x30, 0x61, 0x3b, 0x7c, 0x84, 0x84, 0x3b, 0x95, 0x94, 0xaf, 0x3b, 
  0xc5, 0x88, 0x72, 0x3b, 0x9f, 0xf2, 0x4d, 0x3b, 0x54, 0xfd, 0x4b, 0x3b, 
  0xcf, 0xe5, 0x8e, 0x3b, 0xb9, 0xee, 0x2f, 0x3b, 0xce, 0x8c, 0x3e, 0x3b, 
  0x5b, 0x9b, 0x51, 0x3b, 0x09, 0xe9, 0x3f, 0x3b, 0xec, 0x6e, 0x8b, 0x3b, 
  0xbf, 0x8a, 0x88, 0x3b, 0x42, 0x8e, 0x26, 0x3b, 0x4a, 0x3b, 0x65, 0x3b, 
  0x5f, 0xcd, 0x5f, 0x3b, 0x7e, 0x71, 0x43, 0x3b, 0x74, 0x01, 0x5e, 0x3b, 
  0x25, 0xea, 0x45, 0x3b, 0x8d, 0x6a, 0x5e, 0x3b, 0x7f, 0x8a, 0x64, 0x3b, 
  0x77, 0x9a, 0x62, 0x3b, 0xad, 0xd2, 0x48, 0x3b, 0x28, 0x3e, 0x33, 0x3b, 
  0x9c, 0xa4, 0x7a, 0x3b, 0xe9, 0x30, 0x8c, 0x3b, 0x22, 0x63, 0x92, 0x3b, 
  0x66, 0x15, 0x7a, 0x3b, 0xb6, 0xa1, 0x37, 0x3b, 0xe4, 0x82, 0x47, 0x3b, 
  0x12, 0x00, 0x00, 0x00, 0x74, 0x66, 0x6c, 0x2e, 0x70, 0x73, 0x65, 0x75, 
  0x64, 0x6f, 0x5f, 0x71, 0x63, 0x6f, 0x6e, 0x73, 0x74, 0x35, 0x00, 0x00, 
  0x02, 0x00, 0x00, 0x00, 0x20, 0x00, 0x00, 0x00, 0x0e, 0x00, 0x00, 0x00, 
  0x7e, 0xfb, 0xff, 0xff, 0x00, 0x00, 0x00, 0x01, 0x14, 0x00, 0x00, 0x00, 
  0xa4, 0x01, 0x00, 0x00, 0x06, 0x00, 0x00, 0x00, 0x00, 0x00, 0x00, 0x02, 
  0xb0, 0x01, 0x00, 0x00, 0xbc, 0xfa, 0xff, 0xff, 0x08, 0x00, 0x00, 0x00, 
  0x08, 0x01, 0x00, 0x00, 0x20, 0x00, 0x00, 0x00, 0x00, 0x00, 0x00, 0x00, 
  0x00, 0x00, 0x00, 0x00, 0x00, 0x00, 0x00, 0x00, 0x00, 0x00, 0x00, 0x00, 
  0x00, 0x00, 0x00, 0x00, 0x00, 0x00, 0x00, 0x00, 0x00, 0x00, 0x00, 0x00, 
  0x00, 0x00, 0x00, 0x00, 0x00, 0x00, 0x00, 0x00, 0x00, 0x00, 0x00, 0x00, 
  0x00, 0x00, 0x00, 0x00, 0x00, 0x00, 0x00, 0x00, 0x00, 0x00, 0x00, 0x00, 
  0x00, 0x00, 0x00, 0x00, 0x00, 0x00, 0x00, 0x00, 0x00, 0x00, 0x00, 0x00, 
  0x00, 0x00, 0x00, 0x00, 0x00, 0x00, 0x00, 0x00, 0x00, 0x00, 0x00, 0x00, 
  0x00, 0x00, 0x00, 0x00, 0x00, 0x00, 0x00, 0x00, 0x00, 0x00, 0x00, 0x00, 
  0x00, 0x00, 0x00, 0x00, 0x00, 0x00, 0x00, 0x00, 0x00, 0x00, 0x00, 0x00, 
  0x00, 0x00, 0x00, 0x00, 0x00, 0x00, 0x00, 0x00, 0x00, 0x00, 0x00, 0x00, 
  0x00, 0x00, 0x00, 0x00, 0x00, 0x00, 0x00, 0x00, 0x00, 0x00, 0x00, 0x00, 
  0x00, 0x00, 0x00, 0x00, 0x00, 0x00, 0x00, 0x00, 0x00, 0x00, 0x00, 0x00, 
  0x00, 0x00, 0x00, 0x00, 0x00, 0x00, 0x00, 0x00, 0x00, 0x00, 0x00, 0x00, 
  0x00, 0x00, 0x00, 0x00, 0x00, 0x00, 0x00, 0x00, 0x00, 0x00, 0x00, 0x00, 
  0x00, 0x00, 0x00, 0x00, 0x00, 0x00, 0x00, 0x00, 0x00, 0x00, 0x00, 0x00, 
  0x00, 0x00, 0x00, 0x00, 0x00, 0x00, 0x00, 0x00, 0x00, 0x00, 0x00, 0x00, 
  0x00, 0x00, 0x00, 0x00, 0x00, 0x00, 0x00, 0x00, 0x00, 0x00, 0x00, 0x00, 
  0x00, 0x00, 0x00, 0x00, 0x00, 0x00, 0x00, 0x00, 0x00, 0x00, 0x00, 0x00, 
  0x00, 0x00, 0x00, 0x00, 0x00, 0x00, 0x00, 0x00, 0x00, 0x00, 0x00, 0x00, 
  0x00, 0x00, 0x00, 0x00, 0x00, 0x00, 0x00, 0x00, 0x00, 0x00, 0x00, 0x00, 
  0x00, 0x00, 0x00, 0x00, 0x00, 0x00, 0x00, 0x00, 0x00, 0x00, 0x00, 0x00, 
  0x00, 0x00, 0x00, 0x00, 0x00, 0x00, 0x00, 0x00, 0x00, 0x00, 0x00, 0x00, 
  0x20, 0x00, 0x00, 0x00, 0x83, 0x3f, 0x1a, 0x39, 0xf2, 0xa9, 0xae, 0x38, 
  0x6f, 0xfc, 0xf2, 0x38, 0xd4, 0xfd, 0x0e, 0x39, 0x42, 0x75, 0x3d, 0x39, 
  0x17, 0xda, 0x02, 0x39, 0xbf, 0x39, 0xde, 0x38, 0xd4, 0x1c, 0xdc, 0x38, 
  0x2f, 0x31, 0x1a, 0x39, 0x85, 0xd6, 0xbd, 0x38, 0x5f, 0x9c, 0xcd, 0x38, 
  0x84, 0x2c, 0xe2, 0x38, 0x20, 0x14, 0xcf, 0x38, 0x33, 0x74, 0x16, 0x39, 
  0x85, 0x55, 0x13, 0x39, 0x54, 0xb8, 0xb3, 0x38, 0x89, 0x59, 0xf7, 0x38, 
  0xc3, 0x7d, 0xf1, 0x38, 0x12, 0xe4, 0xd2, 0x38, 0x7e, 0x8d, 0xef, 0x38, 
  0xba, 0x8e, 0xd5, 0x38, 0xe5, 0xfe, 0xef, 0x38, 0xc5, 0x9a, 0xf6, 0x38, 
  0x88, 0x83, 0xf4, 0x38, 0x1b, 0xb2, 0xd8, 0x38, 0xef, 0x68, 0xc1, 0x38, 
  0x0c, 0x3a, 0x07, 0x39, 0x85, 0x45, 0x17, 0x39, 0x1e, 0xf5, 0x1d, 0x39, 
  0xc8, 0xec, 0x06, 0x39, 0x4b, 0x25, 0xc6, 0x38, 0xc8, 0x47, 0xd7, 0x38, 
  0x12, 0x00, 0x00, 0x00, 0x74, 0x66, 0x6c, 0x2e, 0x70, 0x73, 0x65, 0x75, 
  0x64, 0x6f, 0x5f, 0x71, 0x63, 0x6f, 0x6e, 0x73, 0x74, 0x34, 0x00, 0x00, 
  0x01, 0x00, 0x00, 0x00, 0x20, 0x00, 0x00, 0x00, 0x4e, 0xfd, 0xff, 0xff, 
  0x00, 0x00, 0x00, 0x01, 0x14, 0x00, 0x00, 0x00, 0xe8, 0x00, 0x00, 0x00, 
  0x05, 0x00, 0x00, 0x00, 0x00, 0x00, 0x00, 0x09, 0xf4, 0x00, 0x00, 0x00, 
  0x8c, 0xfc, 0xff, 0xff, 0x08, 0x00, 0x00, 0x00, 0x8c, 0x00, 0x00, 0x00, 
  0x10, 0x00, 0x00, 0x00, 0x00, 0x00, 0x00, 0x00, 0x00, 0x00, 0x00, 0x00, 
  0x00, 0x00, 0x00, 0x00, 0x00, 0x00, 0x00, 0x00, 0x00, 0x00, 0x00, 0x00, 
  0x00, 0x00, 0x00, 0x00, 0x00, 0x00, 0x00, 0x00, 0x00, 0x00, 0x00, 0x00, 
  0x00, 0x00, 0x00, 0x00, 0x00, 0x00, 0x00, 0x00, 0x00, 0x00, 0x00, 0x00, 
  0x00, 0x00, 0x00, 0x00, 0x00, 0x00, 0x00, 0x00, 0x00, 0x00, 0x00, 0x00, 
  0x00, 0x00, 0x00, 0x00, 0x00, 0x00, 0x00, 0x00, 0x00, 0x00, 0x00, 0x00, 
  0x00, 0x00, 0x00, 0x00, 0x00, 0x00, 0x00, 0x00, 0x00, 0x00, 0x00, 0x00, 
  0x00, 0x00, 0x00, 0x00, 0x00, 0x00, 0x00, 0x00, 0x00, 0x00, 0x00, 0x00, 
  0x00, 0x00, 0x00, 0x00, 0x00, 0x00, 0x00, 0x00, 0x00, 0x00, 0x00, 0x00, 
  0x00, 0x00, 0x00, 0x00, 0x00, 0x00, 0x00, 0x00, 0x00, 0x00, 0x00, 0x00, 
  0x00, 0x00, 0x00, 0x00, 0x00, 0x00, 0x00, 0x00, 0x00, 0x00, 0x00, 0x00, 
  0x00, 0x00, 0x00, 0x00, 0x10, 0x00, 0x00, 0x00, 0xf2, 0xf6, 0x5f, 0x3b, 
  0xaf, 0x34, 0x92, 0x3b, 0x1d, 0x1b, 0x97, 0x3b, 0x28, 0xa4, 0x85, 0x3b, 
  0x09, 0xbe, 0x9c, 0x3b, 0x86, 0x5c, 0x8d, 0x3b, 0x96, 0x8b, 0x8b, 0x3b, 
  0x50, 0x4f, 0x91, 0x3b, 0x0b, 0x56, 0xc2, 0x3b, 0x16, 0x7d, 0xa7, 0x3b, 
  0xbc, 0x2a, 0x9f, 0x3b, 0x0d, 0x9e, 0x64, 0x3b, 0xad, 0x85, 0x64, 0x3b, 
  0x3e, 0xc9, 0x8b, 0x3b, 0x3d, 0xfe, 0x87, 0x3b, 0xd0, 0xc1, 0x97, 0x3b, 
  0x12, 0x00, 0x00, 0x00, 0x74, 0x66, 0x6c, 0x2e, 0x70, 0x73, 0x65, 0x75, 
  0x64, 0x6f, 0x5f, 0x71, 0x63, 0x6f, 0x6e, 0x73, 0x74, 0x33, 0x00, 0x00, 
  0x02, 0x00, 0x00, 0x00, 0x10, 0x00, 0x00, 0x00, 0x20, 0x00, 0x00, 0x00, 
  0x66, 0xfe, 0xff, 0xff, 0x00, 0x00, 0x00, 0x01, 0x14, 0x00, 0x00, 0x00, 
  0xe4, 0x00, 0x00, 0x00, 0x04, 0x00, 0x00, 0x00, 0x00, 0x00, 0x00, 0x02, 
  0xf0, 0x00, 0x00, 0x00, 0xa4, 0xfd, 0xff, 0xff, 0x08, 0x00, 0x00, 0x00, 
  0x88, 0x00, 0x00, 0x00, 0x10, 0x00, 0x00, 0x00, 0x00, 0x00, 0x00, 0x00, 
  0x00, 0x00, 0x00, 0x00, 0x00, 0x00, 0x00, 0x00, 0x00, 0x00, 0x00, 0x00, 
  0x00, 0x00, 0x00, 0x00, 0x00, 0x00, 0x00, 0x00, 0x00, 0x00, 0x00, 0x00, 
  0x00, 0x00, 0x00, 0x00, 0x00, 0x00, 0x00, 0x00, 0x00, 0x00, 0x00, 0x00, 
  0x00, 0x00, 0x00, 0x00, 0x00, 0x00, 0x00, 0x00, 0x00, 0x00, 0x00, 0x00, 
  0x00, 0x00, 0x00, 0x00, 0x00, 0x00, 0x00, 0x00, 0x00, 0x00, 0x00, 0x00, 
  0x00, 0x00, 0x00, 0x00, 0x00, 0x00, 0x00, 0x00, 0x00, 0x00, 0x00, 0x00, 
  0x00, 0x00, 0x00, 0x00, 0x00, 0x00, 0x00, 0x00, 0x00, 0x00, 0x00, 0x00, 
  0x00, 0x00, 0x00, 0x00, 0x00, 0x00, 0x00, 0x00, 0x00, 0x00, 0x00, 0x00, 
  0x00, 0x00, 0x00, 0x00, 0x00, 0x00, 0x00, 0x00, 0x00, 0x00, 0x00, 0x00, 
  0x00, 0x00, 0x00, 0x00, 0x00, 0x00, 0x00, 0x00, 0x00, 0x00, 0x00, 0x00, 
  0x00, 0x00, 0x00, 0x00, 0x10, 0x00, 0x00, 0x00, 0xe4, 0x3a, 0x8d, 0x38, 
  0x5f, 0x64, 0xb8, 0x38, 0x6f, 0x92, 0xbe, 0x38, 0xbf, 0x8b, 0xa8, 0x38, 
  0x39, 0xae, 0xc5, 0x38, 0x4e, 0x48, 0xb2, 0x38, 0xef, 0xfd, 0xaf, 0x38, 
  0x18, 0x43, 0xb7, 0x38, 0xd8, 0x17, 0xf5, 0x38, 0xcc, 0x3b, 0xd3, 0x38, 
  0x09, 0xbd, 0xc8, 0x38, 0xfe, 0x29, 0x90, 0x38, 0x9f, 0x1a, 0x90, 0x38, 
  0xb1, 0x4b, 0xb0, 0x38, 0x15, 0x83, 0xab, 0x38, 0xac, 0x64, 0xbf, 0x38, 
  0x12, 0x00, 0x00, 0x00, 0x74, 0x66, 0x6c, 0x2e, 0x70, 0x73, 0x65, 0x75, 
  0x64, 0x6f, 0x5f, 0x71, 0x63, 0x6f, 0x6e, 0x73, 0x74, 0x32, 0x00, 0x00, 
  0x01, 0x00, 0x00, 0x00, 0x10, 0x00, 0x00, 0x00, 0x76, 0xff, 0xff, 0xff, 
  0x00, 0x00, 0x00, 0x01, 0x14, 0x00, 0x00, 0x00, 0x58, 0x00, 0x00, 0x00, 
  0x03, 0x00, 0x00, 0x00, 0x00, 0x00, 0x00, 0x09, 0x64, 0x00, 0x00, 0x00, 
  0xb4, 0xfe, 0xff, 0xff, 0x08, 0x00, 0x00, 0x00, 0x2c, 0x00, 0x00, 0x00, 
  0x04, 0x00, 0x00, 0x00, 0x00, 0x00, 0x00, 0x00, 0x00, 0x00, 0x00, 0x00, 
  0x00, 0x00, 0x00, 0x00, 0x00, 0x00, 0x00, 0x00, 0x00, 0x00, 0x00, 0x00, 
  0x00, 0x00, 0x00, 0x00, 0x00, 0x00, 0x00, 0x00, 0x00, 0x00, 0x00, 0x00, 
  0x00, 0x00, 0x00, 0x00, 0x04, 0x00, 0x00, 0x00, 0x72, 0x2e, 0xed, 0x3b, 
  0x1b, 0xcb, 0xae, 0x3b, 0x2f, 0x67, 0xcd, 0x3b, 0x67, 0x4d, 0xc5, 0x3b, 
  0x12, 0x00, 0x00, 0x00, 0x74, 0x66, 0x6c, 0x2e, 0x70, 0x73, 0x65, 0x75, 
  0x64, 0x6f, 0x5f, 0x71, 0x63, 0x6f, 0x6e, 0x73, 0x74, 0x31, 0x00, 0x00, 
  0x02, 0x00, 0x00, 0x00, 0x04, 0x00, 0x00, 0x00, 0x10, 0x00, 0x00, 0x00, 
  0x00, 0x00, 0x16, 0x00, 0x1c, 0x00, 0x18, 0x00, 0x17, 0x00, 0x10, 0x00, 
  0x0c, 0x00, 0x08, 0x00, 0x00, 0x00, 0x00, 0x00, 0x00, 0x00, 0x07, 0x00, 
  0x16, 0x00, 0x00, 0x00, 0x00, 0x00, 0x00, 0x01, 0x14, 0x00, 0x00, 0x00, 
  0x58, 0x00, 0x00, 0x00, 0x02, 0x00, 0x00, 0x00, 0x00, 0x00, 0x00, 0x02, 
  0x64, 0x00, 0x00, 0x00, 0x54, 0xff, 0xff, 0xff, 0x08, 0x00, 0x00, 0x00, 
  0x2c, 0x00, 0x00, 0x00, 0x04, 0x00, 0x00, 0x00, 0x00, 0x00, 0x00, 0x00, 
  0x00, 0x00, 0x00, 0x00, 0x00, 0x00, 0x00, 0x00, 0x00, 0x00, 0x00, 0x00, 
  0x00, 0x00, 0x00, 0x00, 0x00, 0x00, 0x00, 0x00, 0x00, 0x00, 0x00, 0x00, 
  0x00, 0x00, 0x00, 0x00, 0x00, 0x00, 0x00, 0x00, 0x04, 0x00, 0x00, 0x00, 
  0x79, 0xad, 0xa1, 0x39, 0xd4, 0x4c, 0x6e, 0x39, 0xf9, 0x03, 0x8c, 0x39, 
  0x5a, 0x7e, 0x86, 0x39, 0x11, 0x00, 0x00, 0x00, 0x74, 0x66, 0x6c, 0x2e, 
  0x70, 0x73, 0x65, 0x75, 0x64, 0x6f, 0x5f, 0x71, 0x63, 0x6f, 0x6e, 0x73, 
  0x74, 0x00, 0x00, 0x00, 0x01, 0x00, 0x00, 0x00, 0x04, 0x00, 0x00, 0x00, 
  0x00, 0x00, 0x16, 0x00, 0x20, 0x00, 0x1c, 0x00, 0x1b, 0x00, 0x14, 0x00, 
  0x10, 0x00, 0x0c, 0x00, 0x00, 0x00, 0x00, 0x00, 0x08, 0x00, 0x07, 0x00, 
  0x16, 0x00, 0x00, 0x00, 0x00, 0x00, 0x00, 0x01, 0x18, 0x00, 0x00, 0x00, 
  0x2c, 0x00, 0x00, 0x00, 0x4c, 0x00, 0x00, 0x00, 0x01, 0x00, 0x00, 0x00, 
  0x00, 0x00, 0x00, 0x09, 0x68, 0x00, 0x00, 0x00, 0x02, 0x00, 0x00, 0x00, 
  0xff, 0xff, 0xff, 0xff, 0x0e, 0x00, 0x00, 0x00, 0x0c, 0x00, 0x0c, 0x00, 
  0x00, 0x00, 0x00, 0x00, 0x08, 0x00, 0x04, 0x00, 0x0c, 0x00, 0x00, 0x00, 
  0x08, 0x00, 0x00, 0x00, 0x14, 0x00, 0x00, 0x00, 0x01, 0x00, 0x00, 0x00, 
  0x01, 0x00, 0x00, 0x00, 0x00, 0x00, 0x00, 0x00, 0x00, 0x00, 0x00, 0x00, 
  0x01, 0x00, 0x00, 0x00, 0xf0, 0x1d, 0x0a, 0x3d, 0x21, 0x00, 0x00, 0x00, 
  0x73, 0x65, 0x72, 0x76, 0x69, 0x6e, 0x67, 0x5f, 0x64, 0x65, 0x66, 0x61, 
  0x75, 0x6c, 0x74, 0x5f, 0x6b, 0x65, 0x72, 0x61, 0x73, 0x5f, 0x74, 0x65, 
  0x6e, 0x73, 0x6f, 0x72, 0x5f, 0x31, 0x31, 0x3a, 0x30, 0x00, 0x00, 0x00, 
  0x02, 0x00, 0x00, 0x00, 0x01, 0x00, 0x00, 0x00, 0x0e, 0x00, 0x00, 0x00, 
  0x02, 0x00, 0x00, 0x00, 0x24, 0x00, 0x00, 0x00, 0x04, 0x00, 0x00, 0x00, 
  0xf0, 0xff, 0xff, 0xff, 0x19, 0x00, 0x00, 0x00, 0x02, 0x00, 0x00, 0x00, 
  0x00, 0x00, 0x00, 0x19, 0x0c, 0x00, 0x10, 0x00, 0x0f, 0x00, 0x00, 0x00, 
  0x08, 0x00, 0x04, 0x00, 0x0c, 0x00, 0x00, 0x00, 0x09, 0x00, 0x00, 0x00, 
  0x04, 0x00, 0x00, 0x00, 0x00, 0x00, 0x00, 0x09, 
};

const unsigned int model_data_len = 4976;

#endif
